unsigned char converted_model_tflite[] = {
  0x08, 0x00, 0x00, 0x00, 0x54, 0x46, 0x4c, 0x33, 0x4e, 0xfd, 0xff, 0xff,
  0x03, 0x00, 0x00, 0x00, 0xac, 0x06, 0x00, 0x00, 0x9c, 0x02, 0x00, 0x00,
  0x84, 0x02, 0x00, 0x00, 0x04, 0x00, 0x00, 0x00, 0x0b, 0x00, 0x00, 0x00,
  0x74, 0x02, 0x00, 0x00, 0x6c, 0x02, 0x00, 0x00, 0x3c, 0x02, 0x00, 0x00,
  0x04, 0x02, 0x00, 0x00, 0xec, 0x01, 0x00, 0x00, 0x7c, 0x01, 0x00, 0x00,
  0x6c, 0x00, 0x00, 0x00, 0x1c, 0x00, 0x00, 0x00, 0x14, 0x00, 0x00, 0x00,
  0x0c, 0x00, 0x00, 0x00, 0x04, 0x00, 0x00, 0x00, 0xbc, 0xf9, 0xff, 0xff,
  0xc0, 0xf9, 0xff, 0xff, 0xc4, 0xf9, 0xff, 0xff, 0xfa, 0xfd, 0xff, 0xff,
  0x04, 0x00, 0x00, 0x00, 0x40, 0x00, 0x00, 0x00, 0xa9, 0x48, 0xb0, 0xbe,
  0xdf, 0x37, 0x05, 0x3f, 0x37, 0x32, 0x6d, 0x3f, 0xcb, 0x36, 0x99, 0xbe,
  0xac, 0xe5, 0xa7, 0x3d, 0x41, 0x52, 0x36, 0xbf, 0x18, 0x98, 0x2f, 0xbe,
  0xc7, 0x0f, 0x03, 0xbf, 0xa3, 0x16, 0xb9, 0x3c, 0x76, 0x09, 0xfa, 0xbe,
  0x84, 0x74, 0x99, 0x3e, 0xd1, 0x14, 0x46, 0xbf, 0x9e, 0x4b, 0xd2, 0x3e,
  0x31, 0xb8, 0x93, 0x3d, 0x93, 0x77, 0x1f, 0xbf, 0xc6, 0x51, 0xad, 0x3c,
  0x46, 0xfe, 0xff, 0xff, 0x04, 0x00, 0x00, 0x00, 0x00, 0x01, 0x00, 0x00,
  0x2b, 0x14, 0xf7, 0xbe, 0xc9, 0x54, 0x07, 0x3f, 0xf6, 0xc0, 0xfa, 0x3e,
  0xb5, 0x7c, 0x60, 0xbe, 0xd6, 0xed, 0x48, 0xbe, 0xc9, 0xe7, 0xc8, 0x3e,
  0x00, 0x06, 0x56, 0xbe, 0x92, 0xc7, 0xe0, 0xbe, 0x57, 0x54, 0x60, 0x3e,
  0xb5, 0xc4, 0x7e, 0x3e, 0x52, 0x55, 0xca, 0x3e, 0x78, 0x65, 0xcf, 0xbe,
  0xed, 0x71, 0x9c, 0xbe, 0x44, 0xe0, 0x1a, 0xbe, 0x20, 0x4f, 0xbd, 0xbc,
  0xa8, 0x81, 0x15, 0xbf, 0x7b, 0x89, 0x54, 0xbe, 0x34, 0x44, 0x1c, 0xbf,
  0x52, 0x4d, 0xd6, 0x3e, 0xf5, 0x91, 0x65, 0x3c, 0xab, 0xfc, 0x03, 0x3f,
  0xc3, 0x1f, 0xa5, 0x3e, 0xa6, 0x65, 0xe2, 0xbe, 0x30, 0x9d, 0xf2, 0x3c,
  0x78, 0x35, 0x26, 0x3e, 0x8a, 0x6d, 0xcc, 0x3e, 0xe0, 0x75, 0x8d, 0xbc,
  0x34, 0xa4, 0xde, 0xbe, 0x00, 0x3a, 0x74, 0x3e, 0x6c, 0xa6, 0x97, 0xbe,
  0x68, 0x4e, 0xfc, 0xbe, 0x59, 0x77, 0x99, 0xbe, 0x4a, 0xcc, 0x93, 0x3e,
  0xf6, 0xab, 0xc4, 0x3e, 0xc5, 0xb6, 0x9f, 0xbe, 0x02, 0xa0, 0x97, 0xbe,
  0x3d, 0x06, 0x81, 0x3e, 0xa1, 0x33, 0x92, 0xbe, 0xfc, 0x52, 0x73, 0xbe,
  0xc9, 0x80, 0xb5, 0x3e, 0x79, 0x1f, 0x07, 0xbd, 0x88, 0xeb, 0xe1, 0x3e,
  0x6b, 0x46, 0xe6, 0xbe, 0xe2, 0x88, 0x1a, 0x3f, 0x46, 0x0e, 0x87, 0xbe,
  0xf7, 0x4d, 0xe0, 0xbe, 0xd1, 0x31, 0x12, 0x3f, 0x0f, 0xf1, 0xdc, 0xbe,
  0x57, 0x05, 0xa0, 0x3e, 0xf9, 0xe4, 0x9e, 0xbe, 0x3c, 0x3f, 0x5c, 0x3e,
  0xf7, 0xc0, 0x03, 0xbf, 0x70, 0xa1, 0x1e, 0x3e, 0xc4, 0x38, 0x3f, 0xbd,
  0x22, 0x4d, 0x13, 0xbe, 0xbc, 0xfa, 0xab, 0xbe, 0xf4, 0xc9, 0x36, 0xbe,
  0x6c, 0xf5, 0x18, 0x3e, 0x54, 0xde, 0xf5, 0xbd, 0x2f, 0x45, 0x29, 0x3e,
  0x56, 0x9e, 0xf9, 0xbe, 0x0b, 0x72, 0x39, 0xbe, 0xb0, 0x99, 0x29, 0x3d,
  0xd9, 0x5e, 0x91, 0x3e, 0x52, 0xff, 0xff, 0xff, 0x04, 0x00, 0x00, 0x00,
  0x60, 0x00, 0x00, 0x00, 0x9d, 0xe0, 0xde, 0x3e, 0x63, 0x42, 0x7b, 0xbe,
  0xd0, 0x2d, 0xa5, 0x3e, 0xde, 0xdd, 0xce, 0x3d, 0xea, 0xab, 0x93, 0xbe,
  0xc3, 0x9a, 0x3b, 0xbe, 0xdc, 0x8e, 0x59, 0xbe, 0x20, 0x74, 0x67, 0x3d,
  0x48, 0xc4, 0x8c, 0xbd, 0x6f, 0x65, 0x0f, 0x3f, 0x85, 0xee, 0x77, 0x3e,
  0x93, 0xe1, 0x11, 0x3f, 0xe3, 0x5a, 0x1b, 0xbf, 0xe1, 0x78, 0x88, 0x3e,
  0xdb, 0xef, 0xcd, 0xbe, 0xc6, 0xbe, 0xf5, 0x3e, 0x19, 0xfa, 0xc1, 0xbe,
  0x12, 0xc6, 0x45, 0x3f, 0xb6, 0x3d, 0xc9, 0xbe, 0xf2, 0x06, 0x92, 0xbe,
  0x69, 0x66, 0x34, 0xbf, 0x72, 0xa2, 0x09, 0xbe, 0x81, 0x29, 0xd2, 0x3d,
  0xfb, 0x31, 0x19, 0x3f, 0xbe, 0xff, 0xff, 0xff, 0x04, 0x00, 0x00, 0x00,
  0x08, 0x00, 0x00, 0x00, 0xcb, 0x4d, 0x12, 0xbe, 0x12, 0xfa, 0xb3, 0x3e,
  0xd2, 0xff, 0xff, 0xff, 0x04, 0x00, 0x00, 0x00, 0x20, 0x00, 0x00, 0x00,
  0xfc, 0xba, 0x76, 0xbc, 0xdd, 0xfb, 0x2a, 0xbd, 0xed, 0x33, 0x15, 0x3e,
  0x00, 0x00, 0x00, 0x00, 0x69, 0x0d, 0xe4, 0xba, 0x4a, 0x87, 0xb6, 0x3b,
  0x72, 0x84, 0xa0, 0xbd, 0x3d, 0x94, 0x11, 0x3e, 0x00, 0x00, 0x06, 0x00,
  0x08, 0x00, 0x04, 0x00, 0x06, 0x00, 0x00, 0x00, 0x04, 0x00, 0x00, 0x00,
  0x20, 0x00, 0x00, 0x00, 0x05, 0xf6, 0x75, 0xbd, 0xb7, 0x8a, 0x11, 0xbc,
  0x00, 0x00, 0x00, 0x00, 0x02, 0x19, 0x2a, 0x3d, 0x46, 0x3e, 0xf4, 0xbc,
  0x64, 0xa4, 0x10, 0x3e, 0x00, 0x00, 0x00, 0x00, 0x57, 0x5e, 0xb4, 0x3d,
  0x00, 0xfc, 0xff, 0xff, 0x04, 0xfc, 0xff, 0xff, 0x0f, 0x00, 0x00, 0x00,
  0x4d, 0x4c, 0x49, 0x52, 0x20, 0x43, 0x6f, 0x6e, 0x76, 0x65, 0x72, 0x74,
  0x65, 0x64, 0x2e, 0x00, 0x01, 0x00, 0x00, 0x00, 0x14, 0x00, 0x00, 0x00,
  0x00, 0x00, 0x0e, 0x00, 0x18, 0x00, 0x04, 0x00, 0x08, 0x00, 0x0c, 0x00,
  0x10, 0x00, 0x14, 0x00, 0x0e, 0x00, 0x00, 0x00, 0x00, 0x01, 0x00, 0x00,
  0xf4, 0x00, 0x00, 0x00, 0xe8, 0x00, 0x00, 0x00, 0x14, 0x00, 0x00, 0x00,
  0x04, 0x00, 0x00, 0x00, 0x04, 0x00, 0x00, 0x00, 0x6d, 0x61, 0x69, 0x6e,
  0x00, 0x00, 0x00, 0x00, 0x03, 0x00, 0x00, 0x00, 0x90, 0x00, 0x00, 0x00,
  0x48, 0x00, 0x00, 0x00, 0x04, 0x00, 0x00, 0x00, 0xce, 0xff, 0xff, 0xff,
  0x00, 0x00, 0x00, 0x08, 0x18, 0x00, 0x00, 0x00, 0x0c, 0x00, 0x00, 0x00,
  0x04, 0x00, 0x00, 0x00, 0x7c, 0xfc, 0xff, 0xff, 0x01, 0x00, 0x00, 0x00,
  0x09, 0x00, 0x00, 0x00, 0x03, 0x00, 0x00, 0x00, 0x08, 0x00, 0x00, 0x00,
  0x06, 0x00, 0x00, 0x00, 0x03, 0x00, 0x00, 0x00, 0x00, 0x00, 0x0e, 0x00,
  0x14, 0x00, 0x00, 0x00, 0x08, 0x00, 0x0c, 0x00, 0x07, 0x00, 0x10, 0x00,
  0x0e, 0x00, 0x00, 0x00, 0x00, 0x00, 0x00, 0x08, 0x1c, 0x00, 0x00, 0x00,
  0x10, 0x00, 0x00, 0x00, 0x04, 0x00, 0x00, 0x00, 0xba, 0xff, 0xff, 0xff,
  0x00, 0x00, 0x00, 0x01, 0x01, 0x00, 0x00, 0x00, 0x08, 0x00, 0x00, 0x00,
  0x03, 0x00, 0x00, 0x00, 0x07, 0x00, 0x00, 0x00, 0x05, 0x00, 0x00, 0x00,
  0x02, 0x00, 0x00, 0x00, 0x00, 0x00, 0x0e, 0x00, 0x16, 0x00, 0x00, 0x00,
  0x08, 0x00, 0x0c, 0x00, 0x07, 0x00, 0x10, 0x00, 0x0e, 0x00, 0x00, 0x00,
  0x00, 0x00, 0x00, 0x08, 0x24, 0x00, 0x00, 0x00, 0x18, 0x00, 0x00, 0x00,
  0x0c, 0x00, 0x00, 0x00, 0x00, 0x00, 0x06, 0x00, 0x08, 0x00, 0x07, 0x00,
  0x06, 0x00, 0x00, 0x00, 0x00, 0x00, 0x00, 0x01, 0x01, 0x00, 0x00, 0x00,
  0x07, 0x00, 0x00, 0x00, 0x03, 0x00, 0x00, 0x00, 0x00, 0x00, 0x00, 0x00,
  0x04, 0x00, 0x00, 0x00, 0x01, 0x00, 0x00, 0x00, 0x01, 0x00, 0x00, 0x00,
  0x09, 0x00, 0x00, 0x00, 0x01, 0x00, 0x00, 0x00, 0x00, 0x00, 0x00, 0x00,
  0x0a, 0x00, 0x00, 0x00, 0xb0, 0x02, 0x00, 0x00, 0x4c, 0x02, 0x00, 0x00,
  0xf8, 0x01, 0x00, 0x00, 0xa4, 0x01, 0x00, 0x00, 0x5c, 0x01, 0x00, 0x00,
  0x14, 0x01, 0x00, 0x00, 0xcc, 0x00, 0x00, 0x00, 0x84, 0x00, 0x00, 0x00,
  0x3c, 0x00, 0x00, 0x00, 0x04, 0x00, 0x00, 0x00, 0x86, 0xfd, 0xff, 0xff,
  0x24, 0x00, 0x00, 0x00, 0x0a, 0x00, 0x00, 0x00, 0x0c, 0x00, 0x00, 0x00,
  0x04, 0x00, 0x00, 0x00, 0x78, 0xfd, 0xff, 0xff, 0x08, 0x00, 0x00, 0x00,
  0x49, 0x64, 0x65, 0x6e, 0x74, 0x69, 0x74, 0x79, 0x00, 0x00, 0x00, 0x00,
  0x02, 0x00, 0x00, 0x00, 0x01, 0x00, 0x00, 0x00, 0x02, 0x00, 0x00, 0x00,
  0xba, 0xfd, 0xff, 0xff, 0x34, 0x00, 0x00, 0x00, 0x09, 0x00, 0x00, 0x00,
  0x0c, 0x00, 0x00, 0x00, 0x04, 0x00, 0x00, 0x00, 0xac, 0xfd, 0xff, 0xff,
  0x19, 0x00, 0x00, 0x00, 0x73, 0x65, 0x71, 0x75, 0x65, 0x6e, 0x74, 0x69,
  0x61, 0x6c, 0x5f, 0x32, 0x2f, 0x64, 0x65, 0x6e, 0x73, 0x65, 0x5f, 0x36,
  0x2f, 0x52, 0x65, 0x6c, 0x75, 0x00, 0x00, 0x00, 0x02, 0x00, 0x00, 0x00,
  0x01, 0x00, 0x00, 0x00, 0x08, 0x00, 0x00, 0x00, 0xfe, 0xfd, 0xff, 0xff,
  0x34, 0x00, 0x00, 0x00, 0x08, 0x00, 0x00, 0x00, 0x0c, 0x00, 0x00, 0x00,
  0x04, 0x00, 0x00, 0x00, 0xf0, 0xfd, 0xff, 0xff, 0x19, 0x00, 0x00, 0x00,
  0x73, 0x65, 0x71, 0x75, 0x65, 0x6e, 0x74, 0x69, 0x61, 0x6c, 0x5f, 0x32,
  0x2f, 0x64, 0x65, 0x6e, 0x73, 0x65, 0x5f, 0x35, 0x2f, 0x52, 0x65, 0x6c,
  0x75, 0x00, 0x00, 0x00, 0x02, 0x00, 0x00, 0x00, 0x01, 0x00, 0x00, 0x00,
  0x08, 0x00, 0x00, 0x00, 0x42, 0xfe, 0xff, 0xff, 0x34, 0x00, 0x00, 0x00,
  0x07, 0x00, 0x00, 0x00, 0x0c, 0x00, 0x00, 0x00, 0x04, 0x00, 0x00, 0x00,
  0x34, 0xfe, 0xff, 0xff, 0x1b, 0x00, 0x00, 0x00, 0x73, 0x65, 0x71, 0x75,
  0x65, 0x6e, 0x74, 0x69, 0x61, 0x6c, 0x5f, 0x32, 0x2f, 0x64, 0x65, 0x6e,
  0x73, 0x65, 0x5f, 0x37, 0x2f, 0x4d, 0x61, 0x74, 0x4d, 0x75, 0x6c, 0x00,
  0x02, 0x00, 0x00, 0x00, 0x02, 0x00, 0x00, 0x00, 0x08, 0x00, 0x00, 0x00,
  0x86, 0xfe, 0xff, 0xff, 0x34, 0x00, 0x00, 0x00, 0x06, 0x00, 0x00, 0x00,
  0x0c, 0x00, 0x00, 0x00, 0x04, 0x00, 0x00, 0x00, 0x78, 0xfe, 0xff, 0xff,
  0x1b, 0x00, 0x00, 0x00, 0x73, 0x65, 0x71, 0x75, 0x65, 0x6e, 0x74, 0x69,
  0x61, 0x6c, 0x5f, 0x32, 0x2f, 0x64, 0x65, 0x6e, 0x73, 0x65, 0x5f, 0x36,
  0x2f, 0x4d, 0x61, 0x74, 0x4d, 0x75, 0x6c, 0x00, 0x02, 0x00, 0x00, 0x00,
  0x08, 0x00, 0x00, 0x00, 0x08, 0x00, 0x00, 0x00, 0xca, 0xfe, 0xff, 0xff,
  0x34, 0x00, 0x00, 0x00, 0x05, 0x00, 0x00, 0x00, 0x0c, 0x00, 0x00, 0x00,
  0x04, 0x00, 0x00, 0x00, 0xbc, 0xfe, 0xff, 0xff, 0x1b, 0x00, 0x00, 0x00,
  0x73, 0x65, 0x71, 0x75, 0x65, 0x6e, 0x74, 0x69, 0x61, 0x6c, 0x5f, 0x32,
  0x2f, 0x64, 0x65, 0x6e, 0x73, 0x65, 0x5f, 0x35, 0x2f, 0x4d, 0x61, 0x74,
  0x4d, 0x75, 0x6c, 0x00, 0x02, 0x00, 0x00, 0x00, 0x08, 0x00, 0x00, 0x00,
  0x03, 0x00, 0x00, 0x00, 0x0e, 0xff, 0xff, 0xff, 0x44, 0x00, 0x00, 0x00,
  0x04, 0x00, 0x00, 0x00, 0x0c, 0x00, 0x00, 0x00, 0x04, 0x00, 0x00, 0x00,
  0x00, 0xff, 0xff, 0xff, 0x2b, 0x00, 0x00, 0x00, 0x73, 0x65, 0x71, 0x75,
  0x65, 0x6e, 0x74, 0x69, 0x61, 0x6c, 0x5f, 0x32, 0x2f, 0x64, 0x65, 0x6e,
  0x73, 0x65, 0x5f, 0x37, 0x2f, 0x42, 0x69, 0x61, 0x73, 0x41, 0x64, 0x64,
  0x2f, 0x52, 0x65, 0x61, 0x64, 0x56, 0x61, 0x72, 0x69, 0x61, 0x62, 0x6c,
  0x65, 0x4f, 0x70, 0x00, 0x01, 0x00, 0x00, 0x00, 0x02, 0x00, 0x00, 0x00,
  0x5e, 0xff, 0xff, 0xff, 0x44, 0x00, 0x00, 0x00, 0x03, 0x00, 0x00, 0x00,
  0x0c, 0x00, 0x00, 0x00, 0x04, 0x00, 0x00, 0x00, 0x50, 0xff, 0xff, 0xff,
  0x2b, 0x00, 0x00, 0x00, 0x73, 0x65, 0x71, 0x75, 0x65, 0x6e, 0x74, 0x69,
  0x61, 0x6c, 0x5f, 0x32, 0x2f, 0x64, 0x65, 0x6e, 0x73, 0x65, 0x5f, 0x36,
  0x2f, 0x42, 0x69, 0x61, 0x73, 0x41, 0x64, 0x64, 0x2f, 0x52, 0x65, 0x61,
  0x64, 0x56, 0x61, 0x72, 0x69, 0x61, 0x62, 0x6c, 0x65, 0x4f, 0x70, 0x00,
  0x01, 0x00, 0x00, 0x00, 0x08, 0x00, 0x00, 0x00, 0xae, 0xff, 0xff, 0xff,
  0x44, 0x00, 0x00, 0x00, 0x02, 0x00, 0x00, 0x00, 0x0c, 0x00, 0x00, 0x00,
  0x04, 0x00, 0x00, 0x00, 0xa0, 0xff, 0xff, 0xff, 0x2b, 0x00, 0x00, 0x00,
  0x73, 0x65, 0x71, 0x75, 0x65, 0x6e, 0x74, 0x69, 0x61, 0x6c, 0x5f, 0x32,
  0x2f, 0x64, 0x65, 0x6e, 0x73, 0x65, 0x5f, 0x35, 0x2f, 0x42, 0x69, 0x61,
  0x73, 0x41, 0x64, 0x64, 0x2f, 0x52, 0x65, 0x61, 0x64, 0x56, 0x61, 0x72,
  0x69, 0x61, 0x62, 0x6c, 0x65, 0x4f, 0x70, 0x00, 0x01, 0x00, 0x00, 0x00,
  0x08, 0x00, 0x00, 0x00, 0x00, 0x00, 0x0e, 0x00, 0x14, 0x00, 0x04, 0x00,
  0x00, 0x00, 0x08, 0x00, 0x0c, 0x00, 0x10, 0x00, 0x0e, 0x00, 0x00, 0x00,
  0x2c, 0x00, 0x00, 0x00, 0x01, 0x00, 0x00, 0x00, 0x10, 0x00, 0x00, 0x00,
  0x08, 0x00, 0x00, 0x00, 0x04, 0x00, 0x04, 0x00, 0x04, 0x00, 0x00, 0x00,
  0x0d, 0x00, 0x00, 0x00, 0x64, 0x65, 0x6e, 0x73, 0x65, 0x5f, 0x35, 0x5f,
  0x69, 0x6e, 0x70, 0x75, 0x74, 0x00, 0x00, 0x00, 0x02, 0x00, 0x00, 0x00,
  0x01, 0x00, 0x00, 0x00, 0x03, 0x00, 0x00, 0x00, 0x01, 0x00, 0x00, 0x00,
  0x10, 0x00, 0x00, 0x00, 0x00, 0x00, 0x0a, 0x00, 0x0c, 0x00, 0x07, 0x00,
  0x00, 0x00, 0x08, 0x00, 0x0a, 0x00, 0x00, 0x00, 0x00, 0x00, 0x00, 0x09,
  0x03, 0x00, 0x00, 0x00
};
unsigned int converted_model_tflite_len = 1756;
